TRT-100300-MinMaxCalibration
images: 3c010204
/model.0/conv/Conv_output_0: 3f366491
/model.0/act/Sigmoid_output_0: 3c010204
/model.0/act/Mul_output_0: 3f366491
/model.1/conv/Conv_output_0: 3f8e4c45
/model.1/act/Sigmoid_output_0: 3c010204
/model.1/act/Mul_output_0: 3f49e418
/model.2/cv1/conv/Conv_output_0: 3f0617bd
/model.2/cv1/act/Sigmoid_output_0: 3c010204
/model.2/cv1/act/Mul_output_0: 3e90f689
/model.2/Split_output_0: 3e90f689
/model.2/Split_output_1: 3dff25c1
/model.2/m.0/cv1/conv/Conv_output_0: 3e6cfbb5
/model.2/m.0/cv1/act/Sigmoid_output_0: 3c010204
/model.2/m.0/cv1/act/Mul_output_0: 3e33eb28
/model.2/m.0/cv2/conv/Conv_output_0: 3e33f383
/model.2/m.0/cv2/act/Sigmoid_output_0: 3c010200
/model.2/m.0/cv2/act/Mul_output_0: 3debc476
/model.2/m.0/Add_output_0: 3e093445
/model.2/m.1/cv1/conv/Conv_output_0: 3de093e3
/model.2/m.1/cv1/act/Sigmoid_output_0: 3c0101a4
/model.2/m.1/cv1/act/Mul_output_0: 3db7aa6d
/model.2/m.1/cv2/conv/Conv_output_0: 3e4722dc
/model.2/m.1/cv2/act/Sigmoid_output_0: 3c010204
/model.2/m.1/cv2/act/Mul_output_0: 3e304d55
/model.2/m.1/Add_output_0: 3e5d5e02
/model.2/Concat_output_0: 3e90f689
/model.2/cv2/conv/Conv_output_0: 3e271faf
/model.2/cv2/act/Sigmoid_output_0: 3c0101fd
/model.2/cv2/act/Mul_output_0: 3de219ff
/model.3/conv/Conv_output_0: 3ddc30b1
/model.3/act/Sigmoid_output_0: 3c01004c
/model.3/act/Mul_output_0: 3d9ef7bd
/model.4/cv1/conv/Conv_output_0: 3df92666
/model.4/cv1/act/Sigmoid_output_0: 3c0101f6
/model.4/cv1/act/Mul_output_0: 3dd6b0a5
/model.4/Split_output_0: 3dd6b0a5
/model.4/Split_output_1: 3d543c9f
/model.4/m.0/cv1/conv/Conv_output_0: 3d9c5305
/model.4/m.0/cv1/act/Sigmoid_output_0: 3c00f56f
/model.4/m.0/cv1/act/Mul_output_0: 3d7dcf2f
/model.4/m.0/cv2/conv/Conv_output_0: 3d804be1
/model.4/m.0/cv2/act/Sigmoid_output_0: 3c00651f
/model.4/m.0/cv2/act/Mul_output_0: 3d2b8f74
/model.4/m.0/Add_output_0: 3d63ce82
/model.4/m.1/cv1/conv/Conv_output_0: 3db3e357
/model.4/m.1/cv1/act/Sigmoid_output_0: 3c01018a
/model.4/m.1/cv1/act/Mul_output_0: 3db3e2ac
/model.4/m.1/cv2/conv/Conv_output_0: 3d8d7590
/model.4/m.1/cv2/act/Sigmoid_output_0: 3c00d792
/model.4/m.1/cv2/act/Mul_output_0: 3d5660b5
/model.4/m.1/Add_output_0: 3d9cad2c
/model.4/m.2/cv1/conv/Conv_output_0: 3d794432
/model.4/m.2/cv1/act/Sigmoid_output_0: 3c00f278
/model.4/m.2/cv1/act/Mul_output_0: 3d76f5b2
/model.4/m.2/cv2/conv/Conv_output_0: 3daee639
/model.4/m.2/cv2/act/Sigmoid_output_0: 3c010057
/model.4/m.2/cv2/act/Mul_output_0: 3d9f6530
/model.4/m.2/Add_output_0: 3de08a05
/model.4/m.3/cv1/conv/Conv_output_0: 3d8eba73
/model.4/m.3/cv1/act/Sigmoid_output_0: 3c00f7a6
/model.4/m.3/cv1/act/Mul_output_0: 3d8208ee
/model.4/m.3/cv2/conv/Conv_output_0: 3e188ff5
/model.4/m.3/cv2/act/Sigmoid_output_0: 3c010204
/model.4/m.3/cv2/act/Mul_output_0: 3e188ff5
/model.4/m.3/Add_output_0: 3e1286cc
/model.4/Concat_output_0: 3e1286cc
/model.4/cv2/conv/Conv_output_0: 3dc02a8e
/model.4/cv2/act/Sigmoid_output_0: 3c0101c5
/model.4/cv2/act/Mul_output_0: 3dbe59d7
/model.5/conv/Conv_output_0: 3dd88c16
/model.5/act/Sigmoid_output_0: 3c0101f8
/model.5/act/Mul_output_0: 3dd88c02
/model.6/cv1/conv/Conv_output_0: 3e085e6d
/model.6/cv1/act/Sigmoid_output_0: 3c010204
/model.6/cv1/act/Mul_output_0: 3e085e6d
/model.6/Split_output_0: 3e085e6d
/model.6/Split_output_1: 3d998b8f
/model.6/m.0/cv1/conv/Conv_output_0: 3d9b07a7
/model.6/m.0/cv1/act/Sigmoid_output_0: 3c00ffd2
/model.6/m.0/cv1/act/Mul_output_0: 3d9b0504
/model.6/m.0/cv2/conv/Conv_output_0: 3d8829b0
/model.6/m.0/cv2/act/Sigmoid_output_0: 3c00fac6
/model.6/m.0/cv2/act/Mul_output_0: 3d87da55
/model.6/m.0/Add_output_0: 3d976079
/model.6/m.1/cv1/conv/Conv_output_0: 3da02e55
/model.6/m.1/cv1/act/Sigmoid_output_0: 3c01006a
/model.6/m.1/cv1/act/Mul_output_0: 3da02c58
/model.6/m.1/cv2/conv/Conv_output_0: 3dec22d6
/model.6/m.1/cv2/act/Sigmoid_output_0: 3c010200
/model.6/m.1/cv2/act/Mul_output_0: 3dec22cf
/model.6/m.1/Add_output_0: 3e113a8c
/model.6/m.2/cv1/conv/Conv_output_0: 3da04f1b
/model.6/m.2/cv1/act/Sigmoid_output_0: 3c010034
/model.6/m.2/cv1/act/Mul_output_0: 3d9e1681
/model.6/m.2/cv2/conv/Conv_output_0: 3df3cc00
/model.6/m.2/cv2/act/Sigmoid_output_0: 3c010201
/model.6/m.2/cv2/act/Mul_output_0: 3df3cbfa
/model.6/m.2/Add_output_0: 3e10ac0e
/model.6/m.3/cv1/conv/Conv_output_0: 3dba6d54
/model.6/m.3/cv1/act/Sigmoid_output_0: 3c0101b3
/model.6/m.3/cv1/act/Mul_output_0: 3dba6cdf
/model.6/m.3/cv2/conv/Conv_output_0: 3e58a234
/model.6/m.3/cv2/act/Sigmoid_output_0: 3c010204
/model.6/m.3/cv2/act/Mul_output_0: 3e58a234
/model.6/m.3/Add_output_0: 3e52d5bd
/model.6/Concat_output_0: 3e52d5bd
/model.6/cv2/conv/Conv_output_0: 3ddd637e
/model.6/cv2/act/Sigmoid_output_0: 3c0101fb
/model.6/cv2/act/Mul_output_0: 3ddd636f
/model.7/conv/Conv_output_0: 3df6310c
/model.7/act/Sigmoid_output_0: 3c010202
/model.7/act/Mul_output_0: 3df63108
/model.8/cv1/conv/Conv_output_0: 3e07d617
/model.8/cv1/act/Sigmoid_output_0: 3c010204
/model.8/cv1/act/Mul_output_0: 3e07d617
/model.8/Split_output_0: 3e07d617
/model.8/Split_output_1: 3ddc0de1
/model.8/m.0/cv1/conv/Conv_output_0: 3df10fc9
/model.8/m.0/cv1/act/Sigmoid_output_0: 3c010201
/model.8/m.0/cv1/act/Mul_output_0: 3df10fc3
/model.8/m.0/cv2/conv/Conv_output_0: 3e056b09
/model.8/m.0/cv2/act/Sigmoid_output_0: 3c010204
/model.8/m.0/cv2/act/Mul_output_0: 3e056b09
/model.8/m.0/Add_output_0: 3e09701c
/model.8/m.1/cv1/conv/Conv_output_0: 3e0b5d81
/model.8/m.1/cv1/act/Sigmoid_output_0: 3c0101f6
/model.8/m.1/cv1/act/Mul_output_0: 3dd6f54a
/model.8/m.1/cv2/conv/Conv_output_0: 3dd84e83
/model.8/m.1/cv2/act/Sigmoid_output_0: 3c0101e7
/model.8/m.1/cv2/act/Mul_output_0: 3dca978b
/model.8/m.1/Add_output_0: 3e14ca46
/model.8/Concat_output_0: 3e14ca46
/model.8/cv2/conv/Conv_output_0: 3dddd36c
/model.8/cv2/act/Sigmoid_output_0: 3c010118
/model.8/cv2/act/Mul_output_0: 3da923ef
/model.9/cv1/conv/Conv_output_0: 3d979589
/model.9/cv1/act/Sigmoid_output_0: 3c00ff48
/model.9/cv1/act/Mul_output_0: 3d979252
/model.9/m/MaxPool_output_0: 3d979252
/model.9/m_1/MaxPool_output_0: 3d979252
/model.9/m_2/MaxPool_output_0: 3d979252
/model.9/Concat_output_0: 3d979252
/model.9/cv2/conv/Conv_output_0: 3d8c3259
/model.9/cv2/act/Sigmoid_output_0: 3c00fc84
/model.9/cv2/act/Mul_output_0: 3d8c2c5f
/model.10/Resize_output_0: 3d8c2c5f
/model.11/Concat_output_0: 3ddd636f
/model.12/cv1/conv/Conv_output_0: 3e2c5238
/model.12/cv1/act/Sigmoid_output_0: 3c010204
/model.12/cv1/act/Mul_output_0: 3e2c5238
/model.12/Split_output_0: 3e2c5238
/model.12/Split_output_1: 3dbcdf33
/model.12/m.0/cv1/conv/Conv_output_0: 3e1a7a76
/model.12/m.0/cv1/act/Sigmoid_output_0: 3c010204
/model.12/m.0/cv1/act/Mul_output_0: 3e1a7a76
/model.12/m.0/cv2/conv/Conv_output_0: 3df90e07
/model.12/m.0/cv2/act/Sigmoid_output_0: 3c0101f5
/model.12/m.0/cv2/act/Mul_output_0: 3dd55d1e
/model.12/m.1/cv1/conv/Conv_output_0: 3e06a102
/model.12/m.1/cv1/act/Sigmoid_output_0: 3c01018a
/model.12/m.1/cv1/act/Mul_output_0: 3db3d737
/model.12/m.1/cv2/conv/Conv_output_0: 3deeeb30
/model.12/m.1/cv2/act/Sigmoid_output_0: 3c010201
/model.12/m.1/cv2/act/Mul_output_0: 3deeeb2a
/model.12/Concat_output_0: 3e2c5238
/model.12/cv2/conv/Conv_output_0: 3dc5b0f0
/model.12/cv2/act/Sigmoid_output_0: 3c0101da
/model.12/cv2/act/Mul_output_0: 3dc4ad2f
/model.13/Resize_output_0: 3dc4ad2f
/model.14/Concat_output_0: 3dc4ad2f
/model.15/cv1/conv/Conv_output_0: 3d9fcc0b
/model.15/cv1/act/Sigmoid_output_0: 3c010061
/model.15/cv1/act/Mul_output_0: 3d9fca04
/model.15/Split_output_0: 3d9fca04
/model.15/Split_output_1: 3d4ae6a7
/model.15/m.0/cv1/conv/Conv_output_0: 3d809edf
/model.15/m.0/cv1/act/Sigmoid_output_0: 3c00f488
/model.15/m.0/cv1/act/Mul_output_0: 3d7b91e6
/model.15/m.0/cv2/conv/Conv_output_0: 3da52e09
/model.15/m.0/cv2/act/Sigmoid_output_0: 3c00f7ac
/model.15/m.0/cv2/act/Mul_output_0: 3d821351
/model.15/m.1/cv1/conv/Conv_output_0: 3dca5980
/model.15/m.1/cv1/act/Sigmoid_output_0: 3c0101e6
/model.15/m.1/cv1/act/Mul_output_0: 3dca5952
/model.15/m.1/cv2/conv/Conv_output_0: 3e67d2fd
/model.15/m.1/cv2/act/Sigmoid_output_0: 3c01018e
/model.15/m.1/cv2/act/Mul_output_0: 3db466b6
/model.15/Concat_output_0: 3db466b6
/model.15/cv2/conv/Conv_output_0: 3e07e745
/model.15/cv2/act/Sigmoid_output_0: 3c00ef67
/model.15/cv2/act/Mul_output_0: 3d7120c5
/model.16/conv/Conv_output_0: 3dc3f0b1
/model.22/cv2.0/cv2.0.0/conv/Conv_output_0: 3e177769
/model.22/cv3.0/cv3.0.0/conv/Conv_output_0: 3e35a0e8
/model.16/act/Sigmoid_output_0: 3c01012b
/model.22/cv2.0/cv2.0.0/act/Sigmoid_output_0: 3c0101db
/model.22/cv3.0/cv3.0.0/act/Sigmoid_output_0: 3c0101ff
/model.16/act/Mul_output_0: 3daa67a0
/model.22/cv2.0/cv2.0.0/act/Mul_output_0: 3dc540b2
/model.22/cv3.0/cv3.0.0/act/Mul_output_0: 3de8106f
/model.17/Concat_output_0: 3dc4ad2f
/model.22/cv2.0/cv2.0.1/conv/Conv_output_0: 3f0199b1
/model.22/cv3.0/cv3.0.1/conv/Conv_output_0: 3fbb4e5f
/model.18/cv1/conv/Conv_output_0: 3df66e1f
/model.22/cv2.0/cv2.0.1/act/Sigmoid_output_0: 3c010204
/model.22/cv3.0/cv3.0.1/act/Sigmoid_output_0: 3c010204
/model.18/cv1/act/Sigmoid_output_0: 3c0101fe
/model.22/cv2.0/cv2.0.1/act/Mul_output_0: 3f0199b1
/model.22/cv3.0/cv3.0.1/act/Mul_output_0: 3f6b2b4a
/model.18/cv1/act/Mul_output_0: 3de57a31
/model.22/cv2.0/cv2.0.2/Conv_output_0: 3e099e0e
/model.22/cv3.0/cv3.0.2/Conv_output_0: 3e97e5ee
/model.18/Split_output_0: 3dda6b17
/model.18/Split_output_1: 3de57a31
/model.22/Reshape_output_0: 3e099e0e
/model.22/Reshape_3_output_0: 3e97e5ee
/model.18/m.0/cv1/conv/Conv_output_0: 3df6f10a
/model.18/m.0/cv1/act/Sigmoid_output_0: 3c010201
/model.18/m.0/cv1/act/Mul_output_0: 3df27c0a
/model.18/m.0/cv2/conv/Conv_output_0: 3dee6691
/model.18/m.0/cv2/act/Sigmoid_output_0: 3c0101ff
/model.18/m.0/cv2/act/Mul_output_0: 3de69a93
/model.18/m.1/cv1/conv/Conv_output_0: 3e0b503c
/model.18/m.1/cv1/act/Sigmoid_output_0: 3c0101f2
/model.18/m.1/cv1/act/Mul_output_0: 3dd258c8
/model.18/m.1/cv2/conv/Conv_output_0: 3e39191a
/model.18/m.1/cv2/act/Sigmoid_output_0: 3c010204
/model.18/m.1/cv2/act/Mul_output_0: 3e1f1a05
/model.18/Concat_output_0: 3e1f1a05
/model.18/cv2/conv/Conv_output_0: 3ebd2944
/model.18/cv2/act/Sigmoid_output_0: 3c010203
/model.18/cv2/act/Mul_output_0: 3e00ad25
/model.19/conv/Conv_output_0: 3dcb2b75
/model.22/cv2.1/cv2.1.0/conv/Conv_output_0: 3e167fd7
/model.22/cv3.1/cv3.1.0/conv/Conv_output_0: 3e9386b7
/model.19/act/Sigmoid_output_0: 3c01017f
/model.22/cv2.1/cv2.1.0/act/Sigmoid_output_0: 3c0101fb
/model.22/cv3.1/cv3.1.0/act/Sigmoid_output_0: 3c010204
/model.19/act/Mul_output_0: 3db25e43
/model.22/cv2.1/cv2.1.0/act/Mul_output_0: 3ddc8c1d
/model.22/cv3.1/cv3.1.0/act/Mul_output_0: 3e0a86c5
/model.20/Concat_output_0: 3db25e43
/model.22/cv2.1/cv2.1.1/conv/Conv_output_0: 3ecf98ac
/model.22/cv3.1/cv3.1.1/conv/Conv_output_0: 3f0cb316
/model.21/cv1/conv/Conv_output_0: 3e02cc5e
/model.22/cv2.1/cv2.1.1/act/Sigmoid_output_0: 3c010204
/model.22/cv3.1/cv3.1.1/act/Sigmoid_output_0: 3c010204
/model.21/cv1/act/Sigmoid_output_0: 3c010204
/model.22/cv2.1/cv2.1.1/act/Mul_output_0: 3ecf98ac
/model.22/cv3.1/cv3.1.1/act/Mul_output_0: 3f0cb316
/model.21/cv1/act/Mul_output_0: 3e02cc5e
/model.22/cv2.1/cv2.1.2/Conv_output_0: 3df1914f
/model.22/cv3.1/cv3.1.2/Conv_output_0: 3ed2b7f8
/model.21/Split_output_0: 3de9902e
/model.21/Split_output_1: 3e02cc5e
/model.22/Reshape_1_output_0: 3df1914f
/model.22/Reshape_4_output_0: 3ed2b7f8
/model.21/m.0/cv1/conv/Conv_output_0: 3e05733e
/model.21/m.0/cv1/act/Sigmoid_output_0: 3c010204
/model.21/m.0/cv1/act/Mul_output_0: 3e05733e
/model.21/m.0/cv2/conv/Conv_output_0: 3dfaff3d
/model.21/m.0/cv2/act/Sigmoid_output_0: 3c010203
/model.21/m.0/cv2/act/Mul_output_0: 3dfaff3a
/model.21/m.1/cv1/conv/Conv_output_0: 3debda6a
/model.21/m.1/cv1/act/Sigmoid_output_0: 3c010200
/model.21/m.1/cv1/act/Mul_output_0: 3debda63
/model.21/m.1/cv2/conv/Conv_output_0: 3e251ccb
/model.21/m.1/cv2/act/Sigmoid_output_0: 3c010204
/model.21/m.1/cv2/act/Mul_output_0: 3e251ccb
/model.21/Concat_output_0: 3e251ccb
/model.21/cv2/conv/Conv_output_0: 3e2c7a47
/model.21/cv2/act/Sigmoid_output_0: 3c010202
/model.21/cv2/act/Mul_output_0: 3df5182e
/model.22/cv2.2/cv2.2.0/conv/Conv_output_0: 3dfce7af
/model.22/cv3.2/cv3.2.0/conv/Conv_output_0: 3e2d0f8b
/model.22/cv2.2/cv2.2.0/act/Sigmoid_output_0: 3c010200
/model.22/cv3.2/cv3.2.0/act/Sigmoid_output_0: 3c010204
/model.22/cv2.2/cv2.2.0/act/Mul_output_0: 3deb728e
/model.22/cv3.2/cv3.2.0/act/Mul_output_0: 3e1ec45e
/model.22/cv2.2/cv2.2.1/conv/Conv_output_0: 3f00f97e
/model.22/cv3.2/cv3.2.1/conv/Conv_output_0: 3eedbfc4
/model.22/cv2.2/cv2.2.1/act/Sigmoid_output_0: 3c010204
/model.22/cv3.2/cv3.2.1/act/Sigmoid_output_0: 3c010204
/model.22/cv2.2/cv2.2.1/act/Mul_output_0: 3f00f97e
/model.22/cv3.2/cv3.2.1/act/Mul_output_0: 3eedbfc4
/model.22/cv2.2/cv2.2.2/Conv_output_0: 3dcc03c3
/model.22/cv3.2/cv3.2.2/Conv_output_0: 3eb51e14
/model.22/Reshape_2_output_0: 3dcc03c3
/model.22/Reshape_5_output_0: 3eb51e14
/model.22/Concat_output_0: 3e099e0e
/model.22/Concat_1_output_0: 3ed2b7f8
/model.22/dfl/Reshape_output_0: 3e099e0e
/model.22/Sigmoid_output_0: 3c00ad88
/model.22/dfl/Transpose_output_0: 3e099e0e
/model.22/dfl/Softmax_output: 3bfe2a7b
/model.22/dfl/Softmax_output_0: 3bfe2a7b
/model.22/dfl/conv/Conv_output_0: 3dece9bc
/model.22/dfl/Reshape_1_output_0: 3dece9bc
/model.22/Constant_12_output_0_output: 3f204081
/model.22/Sub_1_output_0: 3e5e3767
/model.22/Concat_2_output_0: 3f20a0c8
ONNXTRT_Broadcast_output: 3c810204
/model.22/Mul_2_output_0: 40a455e1
/model.22/Constant_14_output_0_output: 3c810204
/model.22/Constant_15_output_0_output: 3e810204
/model.22/Slice_output_0: 3dece9bc
/model.22/Div_1_output_0: 3f20a0c8
output0: 40a455e1
/model.22/Add_1_output_0: 3f288d74
ONNXTRT_Broadcast_95_output: 3e810204
/model.22/Sub_output_0: 3f2011d3
/model.22/Add_2_output_0: 3fa0a0c8
/model.22/Constant_13_output_0_output: 3f204081
/model.22/Slice_1_output_0: 3de9c385
